0000000111000101
0000011101000010
0000001001000010
0000010000111001
1111011011101111
0000000100101010
1111011100100100
1111100001001101
1111101100011011
0000000001000001
1111101001010011
1111111101010100
0000000010110111
1111110011010101
0000001000111010
1111111100111000
1111011111000010
0000000100111001
1111011110011000
1111111010001001
0000000110110000
1111110111101110
1111011010011111
1111010110111100
0000000110000001
0000011111011101
1111110010110100
0000000100011001
1111111000000101
0000010101110100
1111110101001110
0000001110100001
1111010010001110
0000000101011010
0000011101010110
1111111100111110
0000000011101110
1111010011100011
1111100011110101
1111110100001110
0000000101101011
0000001011011010
1111101010100101
1111111001001000
1111110000000001
1111101101000011
0000010000011011
0000000011001101
1111110000000111
0000010011000100
0000011111100001
0000000101011101
1111100100110100
0000000011010001
1111111001110101
1111110001100110
0000100110101011
0000010100111000
0000001000011011
0000010101101010
1111110001110000
1111101010000110
0000000111011000
0000001100101110
1111110011110010
0000000001011111
0000100001010100
1111111101101010
1111011111011110
0000001011100111
1111100000111011
0000000000010111
0000010111010100
0000100111110110
0000010011101110
0000100111111101
0000001000000010
0000000111100110
0000010111000011
1111101011000100
0000011010011001
0000001000010101
0000001011000110
1111111110101000
1111101001010011
1111011110100110
1111101100011111
0000001110011011
0000000001001001
0000000111101101
0000011110000111
0000100000111000
1111111010011100
0000010000010100
1111111000011001
1111100110001010
1111010101111010
0000001100001111
0000001111010100
1111101101001001
1111111001111111
1111011010110100
1111110110101001
1111011001011010
0000010101000100
1111011001101111
0000010000100111
0000001001001110
0000000001100110
0000001000011101
1111101110100110
0000000111000100
1111100011000000
0000010110110100
0000001001010101
0000001010011010
1111110100011010
0000100100010000
1111100110100011
1111111101000011
0001000101000011
1111110001111011
0000000011110001
0000100011100010
1111100101010100
1111101001110011
1111111001101110
1111101100110000
0000011100000001
1111111111001010
0000100011010000
1111111000110100
0000000000100101
0000000111001000
0000010111101011
0000010011010110
0000010001111000
0000001111110011
0000000001111000
0000000111000001
1111100110010101
1111111100111001
0000010010111110
1111110001001100
0000010111010100
1111111110100010
0000011000000000
0000011101101010
1111111000011001
1111111010100000
0000000110001011
1111110001110110
1111100000011000
0000010111001111
1111110101001000
0000010101000101
0000000111111010
0000011110011000
1111111010111010
0000000000000110
0000010110110111
1111010101110100
1111111110010001
1111011001001100
1111111111100000
1111101111111111
0000001101110010
0000001101110101
0000000111100011
1111100111001011
1111101100100100
1111101011101011
0000000001111000
1111110111001100
1111110010111011
0000000011110110
0000001110111000
1111101110001011
0000001101101000
1111110110101110
0000001110110101
1111111101110000
0000011111100111
0000010011101001
1111111001001100
1111110111001100
0000001110001000
1111101011011111
0000000001010011
0000010000011000
0000001111000110
1111110111010110
0000000110110010
0000001000011111
1111111001101001
1111111111111000
0000001110001000
0000100001011001
1111101100100100
1111110001011010
1111101100010110
1111101101010011
1111111110100100
0000010110001010
1111100000111011
1111100101110111
0000000010011011
0000000001011001
1111110110110111
1111101001101000
1111110111110100
1111111001001101
0000000111000110
1111101110010010
0000001100100011
1111110001000110
1111011000110001
1111111011110010
1111111000011100
0000000010110001
1111101000000011
1111111011110011
1111101000101110
0000000000000011
1111101110101111
1111111101110110
1111111010010100
1111111001011111
1111111001001000
1111111001110000
1111111101001100
1111111110110111
1111110010001001
1111111000111011
0000000101000101
1111110010101000
0000001001000111
0000010000101001
1111101000001110
1111111101101100
0000000111001100
1111110010100100
1111101001011100
1111101101111111
1111111010101100
1111110111011001
1111111111111101
1111100101011010
0000000011101000
0000001110110111
0000000001111111
0000011001100101
1111110011101011
0000000100110000
1111111000011101
0000010100001000
0000000011010010